befe31ef
bdc38263
bc29be1f
3caa3faf
bcd5eaae
3e81091e
bd2dea41
be510c05
3d7c100c
3e6955a6
3dab9cee
bd67ffa6
3e46001e
3ce07ad5
be9c8f69
bd444b3c
be081240
be93897f
be032262
bd311204
3e2fa883
3d75067a
3d28b754
bdc2d04b
3e5d02d9
be128931
be6540d8
be0dcde4
3e21c238
3e5414b3
bd684add
3ddfd1db
bc4f7f64
bd7282ed
bda94e4c
bd246969
be284b70
3df35533
3cbe0ecf
3e286ba4
bb153b3b
be941e24
3e267c9a
3d135547
be1f0784
3da353d1
3d82fb54
3e84d751
bd677364
3dfc9aba
3c3f387a
be9c68aa
bebd871e
bebc4740
3d87ae03
3e1fa0cf
3e82828f
bc77b274
bc447794
3ddc2653
be973771
be70ad63
bdb90a67
bea9c6d9
3c706fca
3e692f4d
be2cfa18
3db02e3e
3e01c97e
3d770263
bde2660c
bdde13a7
3b7e62f2
bec7180c
bd8d0595
bdc0a704
bcfceece
3e787d7d
3e4ba883
3e50b8db
be22737e
bdd73e9f
3d663475
3ddba2ae
3e968f90
3e2e19a2
3e8cc1ef
bcd407df
be731726
be9f57e5
3e38f75b
be4bbac4
be37a523
3e060c26
bd08b99d
bdca1ea1
bd414ec5
3e1cdd26
3db79426
bd2d1d75
bd7f071c
bcccf643
3bfc84cb
bd703cef
be06e84a
bdfccab7
3b9e53be
bd881103
be7984e3
be35f6cc
3d68b4c5
3d51a046
3da1e89e
3e13935e
3dcd068a
3e236c42
be2d1be6
be0ce31c
3df6174c
3d616f2e
3db8ae07
bd4508a3
be88f14c
3db08e58
3e033c44
3ca8309b
3d585180
3d1eab39
3dc369c1
3d855633
be10430a
bd77e6e4
3db9a583
3ceb1de1
be1a5fcc
be28c580
be9af51e
bf0d77bc
3e4dda3b
bc535862
bea98c48
3e89e402
3e23b4f4
bddc57e0
3ea2a64c
3e5a7918
3d783c37
3e184a21
3c4b4249
be535e16
3e13a4bc
be943b0e
beb56db6
be8a4e84
beafe63c
bea33f8e
3dc3489f
3e0e392c
3e359daa
3bbcaad6
3e184fbc
bbde2c71
3d8cbdd8
3bfeddac
be13cc57
3e6715d6
bd5a39db
be49eaf8
3d9329ed
3decebf7
3e03adaf
3da43785
3db436ad
3e03b7ed
3c387ac6
bd5dc012
be1e1c0a
be47c20e
be9f72ce
be7a6161
3e353545
3df08cd8
be0f0bba
3d876278
be2688a3
be5a6203
be8e62be
be987eed
3ddceb52
3d732a2f
bcb1577b
bcb14dc0
3d18b04d
bd42bf58
bc66c2ad
3cc4c379
3d71e812
3a7bf300
3e6501b9
3deb1ccb
3c21f716
be2aa2ce
be85d7f4
bb303ea2
bd767994
3e4077aa
3e0a300a
be03e6b0
3e141ae4
3e74b6a8
bd9a03ed
be01c361
3e1b8ad5
3db1cb1c
be0d914b
be45e911
3d9beee2
3c7b31ba
bdb180a8
3d1ab3b0
be47f22a
be3b3303
bd2323be
3e143c7e
bb4b4b6d
3dcc7e42
3e1efc85
3d6b181c
be40cfef
3e5255fd
3d2f4309
be9349ff
bdf05346
3e519046
3e07ca24
3c6faa1c
3e4f9e9d
3d8f1d76
bace474b
3d301328
be417079
be4d47e3
be8b88dd
be606aeb
bc38677b
bd4495e4
be29f132
3e47195e
3e0a6248
be82730b
3dc0a509
be7f5551
3e895bcc
bd108da4
be986612
3d6113be
3c3ec253
3c2359d7
be15e7ea
3dd7fef0
3c886ae8
bd69b1d8
be05b510
be4dae58
3e52dce5
3e16765a
be20b92b
3dc49370
bdd58ebf
3e19fd92
3cdf1d47
be5a615d
3d790ea7
3e210852
bebcf6f5
3e1d2f32
3e53abfd
be82c102
3e01da9a
bdb16982
3e4a3fa8
3aa6213c
be389db2
3d94f581
3d88b5c5
be0c5d7d
3e0dbc81
bdb24e17